000000000000000
000000000000000
000000000000000
000000000000000
000000000000000
000000000000000
000000000000000
000000000000000
000000000000000
000000000000000
000000000000000
000000000000000
000000000000000
000000000000000
000000000000000
000000000000000
000000000000000
000000000000000
000000000000000
000000000000000
000000000000000
000000000000000
000000000000000
000000000000000
000000000000000
000000000000000
000000000000000
000000000000000
000000000000000
000000000000000
000000000000000
000000000000000
000000000000000
000000000000000
000000000000000
000000000000000
000000000000000
000000000000000
000000000000000
000000000000000
000000000000000
000000000000000
000000000000000
000000000000000
000000000000000
000000000000000
000000000000000
000000000000000
000000000000000
000000000000000
000000000000000
000000000000000
000000000000000
000000000000000
000000000000000
000000000000000
000000000000000
000000000000000
000000000000000
000000000000000
000000000000000
000000000000000
000000000000000
000000000000000
000000000000000
000000000000000
000000000000000
000000000000000
000000000000000
000000000000000
000000000000000
000000000000000
000000000000000
000000000000000
000000000000000
000000000000000
000000000000000
000000000000000
000000000000000
000000000000000
000000000000000
000000000000000
000000000000000
000000000000000
000000000000000
000000000000000
000000000000000
000000000000000
000000000000000
000000000000000
000000000000000
000000000000000
000000000000000
000000000000000
000000000000000
000000000000000
000000000000000
000000000000000
000000000000000
000000000000000
000000000000000
000000000000000
000000000000000
000000000000000
000000000000000
000000000000000
000000000000000
000000000000000
000000000000000
000000000000000
000000000000000
000000000000000
000000000000000
000000000000000
000000000000000
000000000000000
000000000000000
000000000000000
000000000000000
000000000000000
000000000000000
000000000000000
000000000000000
000000000000000
000000000000000
000000000000000
000000000000000
000000000000000
000000000000000
000000000000000
000000000000000
000000000000000
000000000000000
000000000000000
000000000000000
000000000000000
000000000000000
000000000000000
000000000000000
000000000000000
000000000000000
000000000000000
000000000000000
000000000000000
000000000000000
000000000000000
000000000000000
000000000000000
000000000000000
000000000000000
000000000000000
000000000000000
000000000080000
000000000080000
000000000080000
000000F80000000
000000E8008003E
000000E00000F3E
080000E00000000
000000E80000000
000000F00000000
000000F80000000
000000000000000
000000000F80000
000000000000000
000000000000000
000000000000000
000000000000000
000000000000000
000000000000000
000000000000000
000000000000000
000000000000000
000000000000000
000000000000000
000000000000000
000000000000000
000000000000000
000000080000000
000000080000000
000000000000000
000000000000000
000000000000000
000000000080000
000000000000000
000000000000000
000000000000000
000000000000F00
000000000000E80
000000000000F00
000000000000F80
000000000000000
000000000000000
000000000000000
000000000000000
000000000000000
000000000000000
000000000000000
000000000000000
000000000000000
000000000000000
000000000000000
000000000000000
000000000000000
000000000000000
000000000000000
000000000000000
000000080000000
000000080000002
000000080000002
000000000000004
000000000000002
000000080000004
000000080000000
000000000000000
000000000000F80
000000000000E80
000000000000E80
000000000000F00
000000000000000
000000000000000
000000000000000
000000000000000
000000000000000
000000000000000
000000000000000
000000000000000
000000000000000
000000000000000
000000000000000
000000000000000
000000000000000
000000000000000
000000000000000
000000000000000
000000000000000
0000000BE000000
000000080000000
000000100000002
000000180000082
000000180000004
000000100000004
000000080000002
000000080000000
000000000000F80
000000000000F00
000000000000F00
000000000000E80
000000000000000
000000000000000
000000000000000
000000000000000
000000000000000
000000000000000
000000000000000
000000000000000
000000000000000
000000000000000
000000000000000
000000000000000
000000000000000
000000000000000
000000000000000
000000000000000
000000000000000
000000080000000
0000000BE000080
000000100000080
000000080000000
000000080F82000
000000000000000
000080000000000
000000000000000
000000000000F80
000000000000E80
000004000000E80
000000000000F00
000000000000000
000000000000000
000000000000000
000000000000000
000000000000000
000000000000000
000000000000000
000000000000000
000000000000000
000000000000000
000000000000000
000000000000000
000000000000000
000000000000000
000000000000000
000000000000000
000000000000000
00000003A000000
000000000000000
000F80000F02000
000000000000000
000000000000002
000000000000000
000000000000000
000002000000000
000082000000000
000080000000F80
000000000000000
000000000000000
000000000000000
000000000000000
000000000000000
000000000000000
000000000000000
000000000000000
000000000000000
000000000000000
000000000000000
000000000000000
000000000000000
780000000000000
700000000000000
680000000000000
000000000000000
00000203E000000
08000003C000000
000F80000F80000
000D80000F80000
004F00000000000
002000000000002
000000000000002
000080000000000
000080000000000
000100000000000
000080000000000
000000000000000
000000000000000
000000000000000
000000000000000
000000000000000
000000000000000
000000000000000
000000000000000
000000000000000
780000000000000
700000000000000
700000000000000
700000000000000
700000000000000
700000000000000
780000000000000
000000000000000
000000000000000
080000000000000
000F80000F80000
002E80000F80000
782000000000000
004000000000002
000000000000002
000100000000000
000080000000000
000100000000000
000100000000000
000000000000000
000000000000000
000000000000000
000000000000000
000000000000000
000000000000000
000000000000000
000000000000000
000000000000000
680000000000000
700000000000000
700000000000000
700000000000000
000000000000000
780000002000000
000000002000000
00000000200003E
080000000000000
000000000000000
000F00000000000
002E80000000000
782000000000000
002000000000000
000100000000000
000000000000000
000080000000080
000000000000000
00008003E000000
000000000000000
000000000000000
000000000000000
000000000000000
000000000000000
000000000000000
000000000000000
000000000000000
000000000000000
780000000000000
000000000000000
000000000000000
000000000000000
000000000000000
000000000000000
000000002000000
000000002000000
100000F82000000
000000F80000000
000F00000000000
002F80000000000
004000000000000
000080000000000
000100000000000
000000000000000
000000000000000
000000000000000
000000000000000
000000000000000
000000000000000
000000000000000
000000000000000
000000000000000
000000000000000
000000000000000
000000000000000
000000000000000
000000000000000
000000000000000
000000002000000
000000002000000
000000000000000
000000000000000
000000000000000
000000002000000
180000F84000000
000F00F80000000
000F80000000000
002000000000080
002000000000000
000080000000000
000000000000000
000000000000000
00000003E000000
000000000000000
000000000000000
000000000000000
000000000000000
000000000000000
000000000000000
000000000000000
000000000000000
000000000000000
000000000000000
000000000000000
000000000000000
000100000000000
000000000000000
000000002000080
000000000000000
000000000000000
000000000000000
080000000000000
100F00002000000
000F80F82000000
000000F84000000
000000004000000
000000000000000
000080000000000
000000000000000
000000000000000
000000000000000
000000000000000
000000000000000
000000000000000
000000000000000
000000000000000
000000000000000
000000000000000
000000000000000
000000000000000
000000000000000
000000000000000
000000000000000
000000000000000
000080000000000
000000000000000
000000000000000
000000000000080
000000000000000
080F80000000000
000F0000000003E
000000F8000003E
000000F82000000
000000002000000
000000000000000
000000000000000
080000000000000
000000000000000
03E000000000000
000000000000000
000000000000000
000000000000000
000000000000000
000000000000000
000000000000000
000000000000000
000000000000000
000000000000000
000000000000000
000000000000000
000000000000000
03E000000000000
000000000100000
000000000180000
000000000080000
080000000080000
000000000000000
000000000000000
000F80F80000000
000000F80000000
000000000000000
000000000000000
080000000000000
000000000000000
000000000000000
03E000000000000
03E000000000000
000000000000000
000000000000000
000000000000000
000000000000000
000000000000000
000000000000000
000000000000000
000000000000000
000000000000000
000000000000000
000000000000000
000000000000000
000000000000000
000000000100000
03E000000100000
080000000100000
000000000180000
000000000100000
000000000080000
000000000000000
000000000000000
000000F80000000
000000000000000
000000000080000
000000000080000
000000000000000
03E000000000000
03E000000000000
03E000000000000
000000000000000
000000000000000
000000000000000
000000000000000
000000000000000
000000000000000
000000000000000
000000000000000
000000000000000
000000000000000
000000000000000
000000000000000
080000000000000
13E000000000000
0BC00003E000000
03E00003C000000
00000003E000000
00000003C080000
00000003A000000
000000FBE000080
000000F80000000
000000F80000000
000000000000000
000000000000000
0000000000BE000
000000000080000
03E000000000000
000000000000000
000000000000000
000000000000000
000000000000000
000000000000000
000000000000000
000000000000000
000000000000000
000000000000000
000000000000000
000000000000000
000000000000000
000000000000000
080000000000000
000000000000000
000000000000000
000000000000000
000000000000000
000000000000000
000000000000000
00000003E000000
000000F80000000
000000000000000
000000000000000
03E000000000000
00000000003E000
000000000000000
000000000000000
000000000000000
000000000000000
000000000000000
000000000000000
000000000000000
000000000000000
000000000000000
000000000000000
000000000000000
000000000000000
000000000000000
000000000000000
000000000000000
000000000000000
000000000000000
000000000000F80
000000000000000
000000000000000
000000000080000
000000000080000
000000000000000
000000000000000
000000000000000
000000000000000
000000000000000
000000000000000
000000000000000
000000000000000
000000000000000
000000000000000
000000000000000
000000000000000
000000000000000
000000000000000
000000000000000
000000000000000
000000000000000
000000000000000
000000000000000
000000000F00000
000000000F00000
000000000F80000
000000000000000
000000000000000
000000000000000
000000000000000
000004000000000
000002000000000
000000000000000
000000000000000
000000000000000
000000000000000
000000000000000
000000000000000
000000000000000
000000000000000
000000000000000
000000000000000
000000000000000
000000000000000
000000000000000
000000000000000
000000000000000
000000000000000
000000000000000
000000000000000
000000000000000
000000000F80000
000000000E80000
000000000F00000
000000000000000
000000000000000
000000000000000
000000000000000
000000000000000
000000000000000
000000000000000
000000000000000
000000000000000
000000000000000
000000000000000
000000000000000
000000000000000
000000000000000
000000000000000
000000000000000
000000000000000
000000000000000
000000000000000
000000000000000
000000000000000
000000000000000
000000000000000
000000000000000
000000000000000
000000000000000
000000000000000
000000000F80000
000000000F00000
000000000E80000
000000000F80000
000000000F80000
000000080F80000
000000000000000
000000000000000
000000000000000
000000000000000
000000000000000
000000000000000
000000000000000
000000000000000
000000000000000
000000000000000
000000000000000
000000000000000
000000000000000
000000000000000
000000000000000
000000000000000
000000000000000
000000000000000
000000000000000
000000000000000
000000000000000
000000000000000
000000000000000
000000000000000
000000000000000
000000000000000
000000000000000
000000000000000
000000000000000
000000000000000
000000000000000
000000000000000
000000000000000
000000000000000
000000000000000
000000000000000
000000000000000
000000000000000
000000000000000
000000000000000
000000000000000
000000000000000
000000000000000
000000000000000
000000000000000
000000000000000
000000000000000
000000000000000
000000000000000
000000000000000
000000000000000
000000000000000
000000000000000
000000000000000
000000000000000
000000000000000
000000000000000
000000000000000
000000000000000
000000000000000
000000000000000
000000000000000
000000000000000
000000000000000
000000000000000
000000000000000
000000000000000
000000000000000
000000000000000
000000000000000
000000000000000
000000000000000
000000000000000
000000000000000
000000000000000
000000000000000
000000000000000
000000000000000
000000000000000
000000000000000
000000000000000
000000000000000
000000000000000
000000000000000
000000000000000
000000000000000
000000000000000
000000000000000
000000000000000
000000000000000
000000000000000
000000000000000
000000000000000
000000000000000
000000000000000
000000000000000
000000000000000
000000000000000
000000000000000
000000000000000
000000000000000
000000000000000
000000000000000
000000000000000
000000000000000
000000000000000
000000000000000
000000000000000
000000000000000
000000000000000
000000000000000
000000000000000
000000000000000
000000000000000
000000000000000
000000000000000
000000000000000
000000000000000
000000000000000
000000000000000
000000000000000
000000000000000
000000000000000
000000000000000
000000000000000
000000000000000
000000000000000
000000000000000
000000000000000
000000000000000
000000000000000
000000000000000
000000000000000
000000000000000
000000000000000
000000000000000
000000000000000
000000000000000
000000000000000
000000000000000
000000000000000
000000000000000
000000000000000
000000000000000
000000000000000
000000000000000
000000000000000
000000000000000
000000000000000
000000000000000
000000000000000
000000000000000
000000000000000
000000000000000
000000000000000
000000000000000
000000000000000
000000000000000
000000000000000
000000000000000
000000000000000
000000000000000
000000000000000
000000000000000
000000000000000
000000000000000
000000000000000
080000000000000
0BE000000000000
080000000000000
0BE000000000000
080000000000000
000000000000000
000000000000000
000000000000000
000000000000000
000000000000000
000000000000000
000000000000000
000000000000000
000000000000000
000000000000000
000000000000000
000000000000000
000000000000000
000000000000000
000000000000000
000000000000000
000000000000000
000000000000000
000000000000000
000000000000000
080000000000000
080000000000000
080000000000000
000000000000000
000F80000000000
000000000000000
000000000000000
080000000000000
080000000000000
000000000000000
000000000000000
000000000000000
000000000000000
000000000000000
000000000000000
000000000000000
000000000000000
000000000000000
000000000000000
000000000000000
000000000000000
000000000000000
000000000000000
000000000000000
000000000000000
000000000000000
000000000000000
080000000000000
080000000000000
080000000000000
000000000000000
000F00000000000
000F80000000F80
000000000000F80
000000000000000
000000000000000
00003E000000000
080000000000000
000000000000000
000000000000000
000000000000000
000000000000000
000000000000000
000000000000000
000000000000000
000000000000000
000000000000000
000000000000000
000000000000000
000000000000000
000000000000000
000000000000000
000000000000000
000000000000000
080000000000000
000000000000000
080000000000000
000000000000000
080F80000000000
000F80000F80000
000F80000000000
000000000000000
000000000000000
000000000000000
000000000000000
000000000000000
000000000000000
000000000000000
000000000000000
000000000000000
000000000000000
000000000000000
000000000000000
000000000000000
000000000000000
000000000000000
000000000000000
000000000000000
000000000000000
000000000000000
000000000000000
000000000000000
000000000000000
000000000000000
000000000000000
000000000000000
080000000000000
000000000000002
000F80000000000
080F80000000000
000F80000000080
000000000000000
002000000000080
000000000000000
000000000000000
000000000000000
000000000000000
000000000000000
000000000000000
000000000000000
000000000000000
000000000000000
000000000000000
000000000000000
000000000000000
000000000000000
000000000000000
000000000000000
000000000000000
000000000000000
000000000000000
000000000000000
000000000000000
000000000000002
000000000000002
000000000000002
000000000000004
000000000000004
000000000000000
000000000000000
000000000000000
000000000000000
000000000000000
000000000000000
000000000000000
000000000000000
000000000000000
000000000000000
000000000000000
000000000000000
000000000000000
000000000000000
000000000000000
000000000000000
000000000000000
000000000000000
000000000000000
000000000000000
000000000000000
000000000000000
000000000000000
000000000000000
000000000000000
780000000000000
680000000000002
000000000000008
000000000000004
080000000000004
080000000000002
000000000000000
000000000000000
000000000000000
000000000F80000
000000000000000
000000000000000
000000000F80000
000000000000000
000000000000000
000000000000000
000000000000000
000000000000000
000000000000000
000000000000000
000000000000000
000000000000000
000000000000000
780000000000000
000000000000000
700000000000000
600000000000000
580000000000000
580000000000000
600000000000000
000000000000000
000000000000000
000000000000000
000000000000000
000000000000002
002000000000000
000000000000000
000000000000000
000000000F80000
000000000000000
000000000000000
000000000000000
000000000000000
000000000000000
000000000000000
000000000000000
000000000000000
000000000000000
000000000000000
000000000000000
700000000000000
680000000000000
600000000000000
580000000000000
600000000000000
000000000000080
000000000000100
000000000000100
780000000F00000
000F80000000000
000000000000000
002F00000000000
000000000000000
000F80000000000
000F80000000000
000F80000000000
000F80000000000
00000003E000000
000000000000000
000000000000000
000000000000000
000000000000000
000000000000000
000000000000000
000000000000000
000000000000000
000000000000000
000000000000000
680000000000000
680000000000000
700000000000000
000000000000000
00000000000003E
0001000000001BA
0000000000000BA
00000000000003A
000000000F00080
000000000000080
002000000000080
000000000000080
000000000000000
000F80000000000
000000000000000
000F8003E000000
000F8003C000000
00000003A000000
000000000000000
000000000000000
000000000000000
000000000000000
000000000000000
000000000000000
000000000000000
000000000000000
000000000000000
000000000000000
780000000000000
000000000000000
00000000000003E
00000000000003C
08010000000003E
08010000000013E
0000000000000BC
000000000000000
000000000000000
000000000000000
002000000000080
002000000000080
000000000080000
000000000000000
000000000000000
00000003C000000
00000003A000000
00000003A000000
000000000000000
000000000000000
000000000000000
000000000000000
000000000000000
000000000000000
000000000000000
000000000000000
000000000000000
000000000000000
000000000000000
000080000000F3E
00008000000003E
000080000000000
080100000000000
00008003E000180
000000000000080
000000000000000
000000000F80000
000000000000000
000000000000000
004000000080080
000000000100000
000000000080000
000000000000000
000000000000000
00000003C000000
00000003C000000
000000000000000
000000000000000
000000000000000
000000000000000
000000000000000
000000000000000
000000000000000
000000000000000
000000000000000
000000000000000
000000000000F3C
000000000000EBE
000000000080F80
00008003E000000
00008003C000000
00000003E000000
000000000000000
000000000F80000
000000000000000
000000000000000
000000000000000
004002000100000
000000000080000
000002000080000
000000000000000
000000000000000
000000000000000
000000000000000
000000000000000
000000000000000
000000000000000
000000000000000
000000000000000
000000000000000
000000000000000
000000000000000
000000000000000
000000000000000
000000000000F80
000000000000F80
000000000000F80
000000000000000
00000003C000000
000000000000000
000000000000000
000000000000000
000000000000000
000000000000000
000000000100000
004000000100000
000000000000000
000080000000000
000000000000000
000000000000000
000000000000000
000000000000000
000000000000F80
000000000000000
000000000000000
000000000000000
000000000000000
000000000000000
000000000000000
000000000000000
000000000000000
080000000000000
000000000000000
000000000000000
000000000000F80
000000000000000
000000000000000
000000000000000
000000000000000
000000000000000
000000000000000
000000000080000
000080000080000
000080000000000
000080000000000
000000000000000
000000000000000
000000000000000
000000000000000
000000000000F80
000000000000F80
000000000000000
000000000000000
000000000000000
000000000000000
000000000000000
000000000000000
000000000000000
080000000000000
080000000000000
000000000000000
000000000000000
000000000000000
000000000000F80
000000000000000
000000000000000
000000000000F80
000000000000F80
000000000000F80
000000000000000
000080000000000
000000000000000
000000000000000
000000000000000
000000000000000
000000000000000
000000000000000
03E000000000F80
000000000000F80
000000000000000
000000000000000
000000000000000
000000000000000
000000000000000
000000000000000
000000000000000
080000000000000
000000000000000
00003E000000000
00003C000000000
00003C000000000
00003A000000000
03E03A000000F80
03C03A000000000
03C03C000000000
000000000000000
000000000000000
000000000000000
000000000000000
000000000000000
000000000000000
000000000000000
000000000000000
000000000000000
03E000000000F80
000000000000F80
000000000000000
000000000000000
000000000000000
000000000000000
000000000000000
000000000000000
000000000000000
000000000000000
080000000000000
000000000000000
00003E000000000
00003C000000000
03E03E000F80000
03A03A000F80000
03E03A000000000
03E03A000000000
00003E000000000
03E000000000000
03E000000000000
000000000000000
000000000000000
000000000000000
000000000000000
000000000000000
000000000F80000
000000000000000
000000000000F80
000000000000000
000000000000000
000000000000000
000000000000000
000000000000000
000000000000000
000000000000000
000000000000000
000000000000000
080000000000000
080000000000000
000000000000000
00003E000F80000
00003E000F80000
00003E000000000
00003E000000000
00003E000000000
000000000000000
000000000000000
000000000000000
000000000000000
000000000000000
000000000F80000
000000000F80000
000000000F80000
000000000F80000
000000000000F80
000000000000F80
000000000000000
000000000000000
000000000000000
000000000000000
000000000000000
000000000000000
000000000000000
000000000000000
000000000000000
000000000000000
080000000000000
000000000000000
000000000000000
000000000000000
000000000000000
000000000000000
000000000000000
00000003E000000
000000000000000
000000000000000
000000000000000
000000000000000
000000000F80000
000000000F80000
000000000000000
000000000000F80
000000000000F80
000000000000000
000000000000000
000000000000000
000000000000000
000000000000000
000000000000000
000000000000000
000000000000000
000000000000000
000000000000000
000000000000000
000000000000000
000000000000000
000000000000000
000000000000000
000000000000000
000000000000000
000000000000000
000000000000000
000000000000000
000000000000000
000000000000000
000000000000000
000000000000000
000000000000000
000000000000000
000000000000000
000000000000000
000000000000000
000000000000000
000000000000000
000000000000000
000000000000000
000000000000000
000000000000000
000000000000000
000000000000000
000000000000000
000000000000000
000000000000000
000000000000000
000000000000000
000000000000000
000000000000000
000000000000080
000000000000100
000000000000080
000000000000080
000000000000000
000000000000000
000000000000000
000000000000000
000000000000000
000000000000000
000000000000000
000000000000000
000000000000000
000000000000000
000000000000000
000000000000000
000000000000000
000000000000000
000000000000000
000000000000000
000000000000000
000000000000000
000000000000000
000000000000000
000000000000000
000000000000000
000002000000000
000002000000000
000000000000000
000000000000000
080000000000000
000000000000000
000000000000000
000000000000000
000000000000000
000000000000000
000000000000000
000000000000000
000000000000000
000000000000000
000000000000000
000000000000000
000000000000000
000000000000000
000000000000000
000000000000000
000000000000000
000000000000000
000000000000000
000000000000000
000000000000000
000000000000000
000000000000000
000000000000000
000000000000000
000000000000000
000000000000000
000000000000000
000000000000000
000000000000000
000000000000000
000000000000000
000000000000000
000000000000000
000000000000000
000000000000000
000000000000000
000000000000000
000000000000000
000000000000000
000000000000000
000000000000000
000000000000000
000000000000000
000000000000000
000000000000000
000000000000000
000000000000000
000000000000000
000000000000000
000000000000000
000000000000000
000000000000000
000000000000000
000000000000000
000000000000000
000000000000000
000000000000000
000000000000000
000000000000000
000000000000000
000000000000000
000000000000000
000000000000000
000000000000000
000000000000000
000000000000000
000000000000000
000000000000000
000000000000000
000000000000000
000000000000000
000000000000000
000000000000000
000000000000000
000000000000000
000000000000000
000000000000000
000000000000000
000000000000000
000000000000000
000000000000000
000000000000000
000000000000000
000000000000000
000000000000000
000000000000000
000000000000000
000000000000000
000000000000000
000000000000000
000000000000000
000000000000000
000000000000000
000000000000000
000000000000000
000000000000000
000000000000000
000000000000000
000000000000000
000000000000000
000000000000000
000000000000000
000000000000000
000000000000000
000000000000000
000000000000000
000000000000000
000000000000000
000000000000000
000000000000000
000000000000000
000000000000000
000000000000000
000000000000000
000000000000000
000000000000000
000000000000000
000000000000000
000000000000000
000000000000000
000000000000000
000000000000000
000000000000000
000000000000000
000000000000000
000000000000000
000000000000000
000000000000000
000000000000000
000000000000000
000000000000000
000000000000000
000000000000000
000000000000000
000000000000000
000000000000000
000000000000000
000000000000000
000000000000000
000000000000000
000000000000000
000000000000000
000000000000000
000000000000000
000000000000000
000000000000000
000000000000000
000000000000000
000000000000000
000000000000000
000000000000000
000000000000000
000000000000000
000000000000000
000000000000000
000000000000000
000000000000000
000000000000000
000000000000000
000000000000000
000000000000000
000000000000000
000000000000000
000000000000000
000000000000000
000000000000000
000000000000000
000000000000000
000000000000000
000000000000000
000000000000000
000000000000000
000000000000000
000000000000000
000000000000000
000000000000000
000000000000000
000000000000000
000000000000000
000000000000000
000000000000000
000000000000000
000000000000000
000000000000000
000000000000000
000000000000000
000000000000000
000000000000000
000000000000000
000000000000000
000000000000000
000000000000000
000000000000000
000000000000000
000000000000000
000000000000000
000000000000000
000080000000000
000080000000000
000002000000000
000002000000000
000002000000000
000000000000000
000000000000000
000002000000000
000000000000000
000000000000000
000000000000000
000000000000000
000000000000000
000000000000000
000000000000000
000000000000000
000000000000000
000000000000000
000000000000000
000000000000000
000000000000000
000000000000000
000000000000000
000000000000000
000000000000000
000000000000000
080000000000F80
100000000000F80
100000000000F80
100000000000F80
100000000000F80
100002000000000
180000000000000
080000000000F00
000002000000000
000002000000000
000002000000000
000002000000000
000000000000000
000000000000000
000000000000000
000000000000000
000000000000000
000000000000000
000000000000000
000000000000000
000000000000000
000000000000000
000000000F80000
000000000F80000
000000000000000
000000000000000
000000000000000
000000000000000
00000003E000000
000000000000000
000000000000000
000000000000000
000002000000000
000002000000000
000000000000000
000002000000000
000000000000000
000000000000000
000000000000000
000002000000000
000000000000000
000000000000000
000000000000000
000000000000000
000000000000000
000000000000000
000000000000000
000000000000000
000000000000000
000000000F80000
000000000F80000
000000000000000
000000000000000
000000000000000
00000003E000000
000000000000000
000000000000000
000000000000000
000000000000000
000000000000000
000002000000000
000002000000000
000004000000000
000084000000000
000002000000000
000000000000000
000000000000000
000000000000000
000000000000000
000000000000000
000000000000000
000000000000000
000000000000000
000000000000000
000000000000000
000000000000000
000000000000000
000000000000000
000000000000000
00000003E000000
000000000000000
000000000000000
000000000000000
780000000000000
000000000000000
000000000000000
000000000000000
000080000000000
000000000000000
000080000000000
00008003E000000
000000000000000
000000000000000
000000000000000
000000000000000
000000000000002
000000000000000
000000000000000
000000000000000
000000000000000
000000000000000
000000000000000
000000000000000
000000000000000
000000000000000
000000000000000
000000000000000
000000000000000
000000000000000
000000000000000
000000000000000
000000000000080
000000000000000
000000000000000
00003C000000000
0000BA000F80000
0000BC000F80000
00003C000000000
78003CF80000000
00003EF80000000
78003CF80000000
00003C000000000
00003C000000000
000000000000000
000000000000000
000000000000000
000000000000000
000000000000000
000000000000000
000000000000000
000000000000000
000000000000000
000000000000000
000000000000000
000000000000000
000000000000000
000002000000000
000000000000000
000002000000002
000000002000000
000000000000002
000000000000004
000000000000000
00003C000000000
78013C000F00000
000038000F80000
000038000000000
780038F80000000
78003AF80000000
00003C000000000
00003E000000000
000000000000000
000000000000000
000000000000000
000000000000000
000000000000000
000000000000000
000000000000000
000000000000000
000000000000000
000000000000000
000000000000000
000000000000000
000000000000000
000000000000000
000000000000000
000000000000000
000F00000000004
000D80000000004
000E00000000000
000000000000000
00000000000003C
000000000000000
780000000F80000
000000F80F80000
000000000F80000
000000000000000
000000000000000
000000000000000
000000000000000
000000000000000
000000000000000
000000000000000
000000000000000
000000000000000
000000000000000
000000000000000
000000000000000
000000000000000
000000000000000
000F80000000000
000000000000000
000F00000000000
000E80000000000
000D80000000004
000E8000003E002
000E800000BE000
000E80000180000
000000000000000
00000000000003A
00000000000003E
000000000000000
000002000000000
00000000000003E
000F80000000000
00000000000003E
000000000000000
000000000000000
000000000000000
000000000000000
000000000000000
000000000000000
000000000000000
000000000000000
000000000000000
000000000000000
000000000000000
000F80000000000
000E80000000000
000E80000000002
000E8000003E002
000E800000BE002
000F8000003C002
000000002038000
0000000021BE000
080000000100000
000000000000F80
00000008000003C
00000000000003E
000000000000000
000000000000000
000002000000000
000000000000000
000000000000000
000000000000000
000000000000000
000000000000000
000000000000000
000000000000000
000000000000000
000000000000000
000000000000000
000000000000000
000000000000000
000000000000000
000000000000000
000F8000003E000
000F8000003C000
00000000003A000
000000F8203C000
0000020000BE000
000000000100000
000000002100000
000000000080000
000000000000F3E
000000080000000
00000000000003C
00000000200003E
00000000000003E
000000000000000
000000000000000
000000000000000
000000000000000
000000000000000
000000000000000
000000000000000
000000000000000
000000000000000
000000000000000
000000000000000
000000000000000
000000000000000
000000000000000
000000000000000
00000000003C000
00000000003E000
000000002000000
000000F80000000
000000002080000
000000000080000
000000000100000
000000080080EBC
000000100000FBE
00000008000003E
00000000000003E
000000002000080
000000000000080
000000000F80000
000000000E80000
000000000F00000
000000000F80000
000000000000000
000000000000000
000000000000000
000000000000000
000000000000000
000000000000000
000000000000000
000000000000000
000000000000000
000000000000000
000000000000000
000000000000000
000000000000000
000000F82000000
000000F80000000
000000000000000
00000000008003E
00000008010003E
00008000000203E
00000010000003E
00000000000003E
000000002000080
000000002000100
000000000000080
000000000F00000
000000000F00000
000000000F80000
000000000000000
000000000000000
000080000000000
000080000000000
000000000000000
000000000000000
000000000000000
000000000000000
000000000000000
000000000000000
000000000000000
000000000000000
000000000000000
000000F80000000
000000F8200003E
00000000000003E
000000000000000
000004100000000
00000008000003E
00000008000403E
00000010000203E
0000000000000BE
000000002000080
000000000000080
000000000000080
000000000F80000
000000000000000
000000000F80000
000000000000000
000000000000000
000080000000000
000000000000000
000000000000000
000000000000000
000000000000000
000000000000000
000000000000000
000000000000000
000080000000000
000000000000000
000000F80000000
000000F00000000
000000000000000
000000000000000
000000080000000
000002100000000
00000010000003E
00000010000003E
000000000000000
000000002000000
000000002000000
000000000000000
000000000000000
000000000000000
000000000000000
000000000000000
000000000000000
000000000000000
000080000000000
000000000000000
000000000000000
000000000000000
000000000000000
000000000000000
000000000000000
000000000000000
000080000000000
000080000000000
000000F00000000
000000F80000000
000000000000000
000000000000000
000000000000000
000000000000000
000002080000000
000080080000000
000000002000000
000000000000000
000000000000000
000000000000000
000000000000000
000000000000000
000000000000000
000000000000000
000000000000000
000000000000000
000000000000000
000000000000000
000000000000000
000000000000000
000000000000000
000000000000000
000000000000000
000000000000000
000000000000000
000000000000000
000000000000000
000000000000000
000000000000000
000080000000000
000000000000000
000080000000000
000000080000000
000000000000000
000080000000000
000000000000000
000000000000000
000000000000000
000000000000000
000000000000000
000000000000000
000000000000000
000000000000000
000080000000000
000000000000000
000000000000000
000000000000000
000000000000000
000000000000000
000000000000000
000000000000000
000000000000000
000000000000000
000000000000000
000000000000000
000000000000000
000000000000000
000000000000000
000000000000000
000000000000002
000002000000000
080000000000000
000000000000000
000000000000000
000000000000000
000000000000F80
000000000000F00
000000000000F80
000000000000F80
000000000000000
000000000000000
000000000000000
000000000000000
000000000000000
000000000000000
000000000000000
000000000000000
000000000000000
000000000000000
000000000000000
000000000000000
000080000000000
000080000000F80
000000000000000
00000003E000000
00008003E000000
00000003E000000
00000003E000000
00000003E000000
00000003E000000
00000003A000000
00000003A000000
000000000000000
000000000000F00
000000000000F00
000000000000F80
000000000000000
000000000000000
000000000000000
000000000000000
000000000000000
000000000000000
000000000000000
000000000000000
000000000000000
000000000000000
000000000000000
000000000000000
000000000000000
000000000000000
000080000000000
000000000000000
00000003E000000
00000003C000000
00000003C000000
00000003C000000
00000003E000000
00000003E000000
00000003C000000
00000003C000000
00000003A000000
00000003C000000
000000000000000
000000000000000
000000000000000
000000000000000
000000000000000
000000000000000
000000000000000
000000000000000
000000000000000
000000000000000
000000000000000
000000000000000
000000000000000
000000000000000
000000000000000
000000000000000
000000000000000
780000000F80000
780000000000000
000000000000000
000000000000000
000000000000000
000000000000000
000000000000000
000000000000000
000000000000000
000000000000000
000000000000000
000000000000000
000000000000000
000000000000000
000000000000000
000000000000000
000000000000000
000000000000000
000000000000000
000000000000000
000000000000000
000000000000000
000000000000000
000000000000000
000000000000000
000000000000000
000000000000000
000000000000000
000000000000000
780000000000000
700000000000000
700000000000000
680000000000000
680000000000000
600000000000000
700000000000000
700000000000000
780000000000000
780000000000000
000000000000000
000000000000000
000000000000000
000000000000000
000000000000000
000000000000000
000000000000000
000000000000000
000000000000000
000000000000000
000000000000000
000000000000000
000000000000000
000000000000000
000000000000000
000000000000000
000000000000000
000000000000000
000000000000000
000000000000000
000000000000000
000000000000000
000000000000000
000000000000000
000000000000000
000000000000000
000000000000000
000000000000000
000000000000000
000000000000000
000000000000000
000000000000000
000000000000000
000000000000000
000000000000000
000000000000000
000000000000000
000000000000000
000000000000000
000000000000000
000000000000000
000000000000000
000000000000000
000000000000000
000000000000000
000000000000000
000000000000000
000000000000000
000000000000000
000000000000000
000000000000000
000000000000000
000000000000000
000000000000000
000000000000000
000000000000000
000000000000000
000000000000000
000000000000000
000000000000000
000000000000000
000000000000000
000000000000000
000000000000000
000000000000000
000000000000000
000000000000000
000000000000000
000000000000000
000000000000000
000000000000000
000000000000000
000000000000000
000000000000000
000000000000000
000000000000000
000000000000000
000000000000000
000000000000000
000000000000000
000000000000000
000000000000000
000000000000000
000000000000000
000000000000000
000000000000000
000000000000000
000000000000000
000000000000000
000000000000000
000000000000000
000000000000000
000000000000000
000000000000000
000000000000000
000000000000000
000000000000000
000000000000000
000000000000000
000000000000000
000000000000000
000000000000000
000000000000000
000000000000000
000000000000000
000000000000000
000000000000000
000000000000000
000000000000000
000000000000000
000000000000000
000000000000000
000000000000000
000000000000000
000000000000000
000000000000000
000000000000000
000000000000000
000000000000000
000000000000000
000000000000000
000000000000000
000000000000000
000000000000000
000000000000000
000000000000000
000000000000000
000000000000000
000000000000000
000000000000000
000000000000000
000000000000000
000000000000000
000000000000000
000000000000000
000000000000000
000000000000000
000000000000000
000000000000000
000000000000000
000000000000000
000000000000000
000000000000000
000000000000000
000000000000000
000000000000000
000000000000000
000000000000000
000000000000000
000000000000000
000000000000000
000000000000000
000000000000000
000000000000000
000000000000000
000000000000000
000000000000000
000000000000000
000000000000000
000000000000000
000000000000000
000000000000000
000000000000000
000000000000000
000000000000000
000000000000000
000000000000000
000000000000000
000000000000000
000000000000000
000000000000000
000000000000000
000000000000000
000000000000000
000000000000000
000000000000000
000000000000000
000000000000000
000000000000000
000000000000000
000000000000000
000000000000000
000000000000000
000000000000000
000000000000000
000000000000000
000000000000000
000000000000000
000000000000000
000080000000000
000080000000000
000000000000000
000000000000000
000000000000000
000000000000000
000000000000000
000000000000000
000000000000000
000000000000000
000000000000000
000000000000000
000000000000000
000000000000000
000000000000000
000000000000000
000000000000000
000000000000000
000000000000000
000000000000000
000000000000000
000000000000000
000000000000000
000000000000000
000000000000000
000000000000000
000000000000000
000000000000000
000100000000000
000100000000000
000000000000000
000000000000000
000000000000000
000000000000F80
000100000000F82
00008003E000F00
000000000000000
00000003E000000
000000000000000
000000000000000
000000000000000
000000000000000
000000000000000
000000000000000
000000000000000
000000000000000
000000000000000
000000000000000
000000000000000
000000000000000
000000000000000
000000002000000
000000000000000
000000000000002
000000000000002
000000000000000
000080000000000
000080000000000
000200000000000
03C200000000000
03E280000000000
000200000000000
000100000000000
000000000000000
00000003E000000
000000000000F80
000000000000F80
00000003E000F00
000000000000000
000000000000000
000000000000000
000000000000000
000000000000000
000000000000000
000000000000000
000000000000000
000000000000000
000000000000000
000000002000000
000000000000000
000000000000000
000000000000004
000000000000004
000000000000002
000000000000000
000000000000000
000000000000080
03E100000000080
03E100000000080
000000000000080
000000000000000
000000000000002
000000000000000
000000000000000
000000000000002
00000003E000F80
00000003E000F00
000000000000000
000000000000000
000000000000000
000000000000000
000000000000000
000000000000000
000000000000000
000000000000000
000000002000000
000000000000000
000000000000000
000000000000002
000000000000004
000000000000002
000000000000004
000000000000002
000000000000000
000000000000080
000000000000080
000000000000080
000000000000000
000FBE000000000
00003E000000000
000000000000002
000000000000000
000000000000000
000000000000000
00000003C000000
000000000000000
000000000000000
000000000000000
000000000000000
000000000000000
000000000000000
000000000000000
000000000000000
000000000000000
000000000000000
000000000000000
000000000000000
000000000000000
000000000000002
000000000000004
00000003E000006
000F80000000004
000E80000000004
000E00080000100
000E80082000000
000F80004000000
000000000000000
000000000000000
000000000000000
000000000000000
000000000000000
000000000000000
00000003C000000
00000003E000000
000000000000000
000000000000000
000000000000000
000000000000000
000000000000000
000000000000000
000000000000000
000000000000000
000000000000000
000000000000080
000000000000000
00000003E000000
00000003E000000
00200003E000000
002F8003E000002
000F00000000002
000E80100000000
000F00080000000
000E00000000000
000000002000000
000000004000000
000000000000000
000000000000000
000000000000000
000000000000000
00000003E000000
00000003C000000
000000000000000
000000000000000
000000000000000
000000000000000
000000000000000
000000000000000
000000000000000
000000000000000
000000000000000
000000000000000
000000000000080
00000003E000080
000000000000000
002F80000000000
002000000000000
002000000000000
000000000000000
000000000000000
000000000000000
00000000003E000
000000002000000
000000002F80000
000000002000080
000000000000000
000000000000080
000000000000080
000000000000000
000000000000000
000000000000000
000000000000000
000000000000000
000000000000000
000000000000000
000000000000000
000000000000000
000000000000000
000000000000000
000000000000000
000000000000000
00000003E000000
000000000000000
000000000000000
000000000000000
000000000000F80
000000000000E80
000000000000000
03A00000003C03E
00000000003E03E
000000002F80000
000000004000100
000000002000080
000000000F80080
000000000000100
000000000000080
000000000000000
000000000000000
000000000000000
000000000000000
000000000000000
000000000000000
000000000000000
000000000000000
000000000000000
000000000000000
000000000000000
000000000000000
000F80000000000
002F80000000000
002F80000000000
00000000000003E
000000000000FBE
000004000000EBE
000002F0000003E
038080F00000000
03C000000000000
000000000000080
000000000000080
000000004000000
000000000000000
000000000F80000
000000000F80000
000000000000000
000000000000000
000000000000000
000000000000000
000000000000000
000000000000000
000000000000000
000000000000000
000000000000000
000000000000000
000000000000000
000000000000000
00000000000003E
00000000000003C
000000000000FBC
000000000000FBA
080000000000EBA
000000000000EBC
000006F00000FBE
03E000E0000003E
03A000F80000000
000000000000080
000000000000000
000000002F80000
000000F84000000
080000000000000
000000000F80000
000000000000000
000000000000000
000000000000000
000000000000000
000000000000000
000000000000000
000000000000000
000000000000000
000000000000000
000000000000000
000000000000000
000000000000000
000000000000000
00000000000003A
000000000000FBA
000000000000F3A
000000000000F3E
080000000000E80
00000403E000000
000000E80000000
03C000F00000000
03C000000000080
000000002000000
000000002000000
000000002000000
000000000F80000
000000000F80000
000000000000000
000000000000000
000000080000000
002000080000000
002000000000000
000000000000000
000000000000000
000000000000000
000000000000000
000000000000000
000000000000000
000000000000000
000000000000000
000000000000000
00000000000003E
000000000000FBE
000000000000F80
000000000000F80
000000000000000
080000F80000000
03E000E00080000
038000F80000000
03C000000000000
000000002000000
000000002000000
000000002000000
080000000F80000
000000000000000
000000000000000
002000000000F80
006000080000F80
002000000000000
000000000000000
000000000000000
000000000000000
000000000000000
000000000000000
000000000000000
000000000000000
000000000000000
000000000000000
000000000000000
000000000000000
000000000000F00
000000000000000
000000000000000
000000000000000
000000F80000000
03E000E00000000
03C000F00000100
000F80000000000
000000000F80000
000000000F80000
000000000000000
000000000000000
000000000000000
000000000000000
000000000000000
000000000000000
000000000000000
000000000000000
000000000000000
000000000000000
000000000000000
000000000000000
000000000000000
000000000000000
000000000000000
000000000000000
000000000000000
000000000000000
78000003E000F80
70000003E000F80
680000000000000
780000000000000
00000003E000000
000000F00000000
7BE000F00000000
000000000000000
000000000000000
000000000000000
000002000000000
000004000000000
000002000000000
000000000000000
000000000000000
000000000000000
000000000000000
000000000000000
000000000000000
000000000000000
000000000000000
000000000000000
000000000000000
000000000000000
000000000000000
000000000000000
000000000000000
000000000000000
00000003E000F00
68000003E000000
68000003E000000
60000003E000000
58000003E000000
58000003E000000
580000000000000
780000000000000
000000000000000
000002000000000
000002000000000
000004000000000
000000000080000
000000000000000
000000000000000
000000000000000
000000000000000
000000000000000
000000000000000
000000000000000
000000000000000
000000000000000
000000000000000
000000000000000
000000000000000
000000000000000
000000000000000
000000000000000
000000000000000
000000000000002
000000000000F82
000000000100000
780080000080000
000000000080000
78000003E080000
000000000080000
000000000080000
000002000180000
000000000080000
000000000180000
000000000100000
000000000000000
000000000000000
000000000000000
000000000000000
000000000000000
000000000000000
000000000000000
000000000000000
000000000000000
000000000000000
000000000000000
000000000000000
000000000000000
000000000000000
000000000000000
000000000000000
00000003E000000
00000003E080F80
000000000000F80
000000000080000
000000000100000
000000000080000
000000000080000
000000000080000
000000000080000
000000000100000
000000000100000
000000000000000
000000000000000
000000000000000
000000000000000
000000000000000
000000000000000
000000000000000
000000000000000
000000000000000
000000000000000
000000000000000
000000000000000
000000000000000
000000000000000
000000000000000
000000000000000
000000000000000
000000000000000
000000000000000
000000000000000
000000000000002
000000000000002
00000003E000002
000000000000002
000000000000000
000000000000000
000000000000000
000000000000000
000000000000000
000000000000000
000000000000000
000000000000000
000000000000000
000000000000000
000000000000000
000000000000000
000000000000000
000000000000000
000000000000000
000000000000000
000000000000000
000000000000000
000000000000000
000000000000000
000000000000000
000000000000000
000000000000000
000000000000000
000000000000000
000000000000000
000000000000000
000000000000000
00003E000000000
00003A000000000
00003A000000000
00003A000000000
00003E000000000
000000000000000
000000000000000
000000000000000
000000000000000
000000000000000
000000000000000
000000000000000
000000000000000
000000000000000
000000000000000
000000000000000
000000000000000
000000000000000
000000000000000
000000000000000
000000000000000
000000000000000
000000000000000
000000000000000
100000000000000
080000000000000
000000000000000
000000000000002
000000000000002
000000000000000
000000000000000
000000000F80000
000000000000000
000000000000000
000000000000000
000000000000000
000000000000000
000000000000000
000000000000000
000000000000000
000000000000000
000000000000000
000000000000000
000000000000000
000000000000000
000000000000000
000000000000000
000000000000000
000000000000000
000000000000000
000000000000000
000000000000000
000000000000000
000000000000000
000000000000000
000000000000000
000000000F80000
000000000F80000
000000000F80000
000000000F00000
000000000F80000
000000000000000
000000000000000
000000000000000
000000000000000
000000000000000
000000000000000
000000000000000
000000000000000
000000000000000
000000000000000
000000000000000
000000000000000
000000000000000
000000000000000
000000000000000
000000000000000
000000000000000
000000000000000
000000000000000
000000000000000
000000000000000
000000000000000
000000000000000
000000000000000
000000000000000
000000000000000
000000000000000
000000000000000
000000000000000
000000000000000
000000000000000
000000000000000
000000000000000
000000000000000
000000000000000
000000000000000
000000000000000
000000000000000
000000000000000
000000000000000
000000000000000
000000000000000
000000000000000
000000000000000
000000000000000
000000000000000
000000000000000
000000000000000
000000000000000
000000000000000
000000000000000
000000000000000
000000000000000
000000000000000
000000000000000
000000000000000
000000000000000
000000000000000
000000000000000
000000000000000
000000000000000
000000000000000
000000000000000
000000000000000
000000000000000
000000000000000
000000000000000
000000000000000
000000000000000
000000000000000
000000000000000
000000000000000
000000000000000
000000000000000
000000000000000
000000000000000
000000000000000
000000000000000
000000000000000
000000000000000
000000000000000
000000000000000
000000000000000
000000000000000
000000000000000
000000000000000
000000000000000
000000000000000
000000000000000
000000000000000
000000000000000
000000000000000
000000000000000
000000000000000
000000000000000
000000000000000
000000000000000
000000000000000
000000000000000
000000000000000
000000000000000
000000000000000
000000000000000
000000000000000
000000000000000
000000000000000
000000000000000
000000000000000
000000000000000
000000000000000
000000000000000
000000000000000
000000000000000
000000000000000
000000000000000
000000000000000
000000000000000
000000000000000
000000000000000
000000000000000
000000000000000
000000000000000
000000000000000
000000000000000
000000000000000
000000000000000
000000000000000
000000000000000
000000000000000
000000000000000
000000000000000
000000000000000
000000000000000
000000000000000
000000000000000
000000000000000
000000000000000
000000000000000
000000000000000
000000000000000
000000000000000
000000000000000
000000000000000
000000000000000
000000000000000
000000000000000
000000000000000
000000000000000
000000000000000
000000000000000
000000000000000
000000000000000
000000000000000
000000000000000
000000000000000
000000000000000
000000000000000
000000000000000
000000000000000
000000000000000
000000000000000
03E000000000000
03E000000000000
03E000000000000
03E000000000000
000000000000000
000000000000000
000000000000000
000000000000000
000000000000000
000000000000000
000000000000000
000000000000000
000000000000000
000000000000000
000000000000000
000000000000000
000000000000000
000000000000000
000000000000000
000000000000000
000000000000000
000000000000000
000000000000000
000000000000000
000000000000000
000F80000000000
03CF80000000000
03EF0003E000000
03EF0003E000000
03EF80000000000
03E000000000000
000000000000000
03E000000000000
03E000000000000
03C000000000000
03E000000000000
03E000000000000
000000000000000
000000000000000
000000000000000
000000000000000
000000000000000
000000000000000
000000000000000
000000000000000
000000000000000
000000000000000
000000000000000
000000000000000
000000000000000
000000000000000
000F80000000000
000F80000000000
000F8003E000000
000F80000000000
000000000000000
000000000000000
000000000000000
00000000003C000
000000000038000
000000000034000
000000000036000
00000000003A000
00000000003C000
00000000003E000
00000000003E000
000000000000000
000000000000000
000000000000000
000000000000000
000000000000000
000000000000000
000000000000000
000000000000000
000000000000000
000000000000000
000000000000000
000000000000000
000F00000000000
000F80000000000
000F80000000000
000F80000000000
000000000000000
000000000000000
000000000000000
000000080000000
000000100000000
000000080000000
000000080000000
000000080000000
000000100F80000
000000000F80000
000000000000000
000000000000000
000000000000000
000000000000000
000000000000000
000000000000000
000000000000000
000000000000000
000000000000000
000000000000000
000000000000000
000000000000000
000000000000000
000F80000000000
000F80000000000
000000000000000
000000000000000
000000000000000
000000000000000
000000000000000
000000000000000
000000000000000
000000080002000
000000080002000
000000000F80000
002000000F00000
002000000E80000
000000000E80000
000000000F80000
000000000000000
000000000000000
002000000000000
000000000000F80
000000000000000
000000000000000
000000000000000
000000000000000
000000000000000
000000000000000
000000000000000
000000000000000
000000000000000
000000000000000
000000000000000
000000000000F80
000000000000F80
000000000000000
000000000000000
000000000000000
000000000000000
000000000002000
000000000004000
000000000004000
000000000F80000
084000000F80000
002000000000000
002000000000000
000000000000000
000000000000000
002000000000000
000000000000000
000000000000F80
000000000000000
000000000000000
000000000000000
000000000000000
000000000000000
000000000000000
000000000000000
000000000000000
000000000000000
000000000000000
000000000000000
000000000000000
000000000000000
000000000000000
000000000002000
000000000004000
000000000006000
000000000002000
000000000002000
080000000000000
080000000000000
082000000000000
102000000000000
000000000000000
002000000000000
000000000000000
000000000000000
000000000000000
000000000000000
000000000000000
000000000000000
000000000000000
000000000000000
000000000000000
000000000000000
000000000000000
000000000002000
000000000000000
000000000000000
002000000000000
000000000000000
000000000000000
000000000000000
000000000002000
000000000002000
000000000000F80
000000F80002000
000000000000000
080000000000000
000000000000000
000000000000000
000000000000000
000000000000000
000000000000000
000000000000000
000000000000000
000000000000000
000000000000000
000000000000000
000000000000000
000000000000000
000000000000000
000000000000000
000000000000000
000000000000000
000000000000000
000080002000000
002000000000000
002000000000000
000000000000000
000000000000000
000000000000000
000000000000F80
000000000000F00
000000000000000
000000000F80000
000000000000000
000000000000000
000000000000000
000000000000000
000000000000000
000000000000000
000000000000000
000000000000000
000000000000000
000000000000000
000000000000000
000000000000000
000000000000000
000000000000000
000000000000000
000000000000000
000000000000000
000080000000000
002000000000000
000000000000000
000000000000000
002000000000000
000000000000000
000000080000000
000000000000000
000000000000F00
00000000000003E
000000000F80000
000000000F80000
002000000000000
000000000000000
000000000000000
000000000000000
000000000000000
000000000000000
000000000000000
000000000000000
000000000000000
000000000000000
000000000000000
000000000000000
000000000000000
000000000000000
000000000000000
000000000000000
000000000000000
002000000000000
000000000000000
000000000000000
000000000000000
000000000000000
000000080000000
03E000000000F80
780000000000F80
000000000000000
00000000000003E
00000000000003E
00000000000003E
000000000000000
000000000000000
000000000000000
000000000000000
000000000000000
000000000000000
000000000000000
000000000000000
000000000000000
000000000000000
000000000000000
000000000000000
000000000000000
000000000000000
000000000000000
000000000000000
000000000000000
000000000000000
000000000000000
000000000000000
000000000000000
00000000003E000
700000000000F80
780000000000F80
000000000000000
000000000000000
00000000000003E
000000F8000003A
000000F8000003E
000000F80000000
000000000000000
000000000000000
000000000000000
000000000000000
000000000000000
000000000000000
000000000000000
000000000000000
000000000000000
000000000000000
000000000000000
000000000000080
000000000000100
000000000000100
000000000000080
000000000000080
000000000000080
000000000000000
000000000000000
000000000000000
68000000003EF80
000000000000000
000000000000000
00000000000003E
000000F8000003C
000000F0000003A
00000000000003E
000000000000000
000000000000000
000000000000000
000000000000000
000000000000000
000000000000000
000000000000000
000000000000000
000000000000000
000000000000000
000000000000000
000000000000000
000000000000080
000000000000080
000000000000080
700000000000100
000000000000100
000000000000080
780000000000000
000000000000000
000000000080000
6800000000BE000
000000F80000000
002000F80000000
000000F0000003E
00000000000003A
00000000000003C
000000000000000
000000000000000
000000000000000
000000000000000
000000000000000
000000000000000
000000000000000
000000000000000
000000000000000
000000000000000
000000000000000
000000000000000
000000000000000
000000000000000
000000000000080
000000000000000
000000000000080
780000000000100
680000000000000
680000000000000
780000000000000
780000000080000
780000000080000
000000F00000000
000000000000000
00000000000003E
00000000000003E
000F80000000000
000000000000000
000000000000000
000000000000000
000000000000000
000000000000000
000000000000000
000000000000000
000000000000000
000000000000000
000000000000000
000000000000000
000000000000000
000000000000000
000000000000000
000000000000000
000000000000000
000000000000080
000000000000080
000000000000002
000000000000000
000000000100000
000000E80080000
000000E00000000
000000F80000000
000000000000000
000000000000000
000F80000000000
03EF80000000000
000000000000000
03E000000000000
000000000000000
000000000000000
000000000000000
000000000000000
000000000000000
000000000000000
000000000000000
000000000000000
000000000000000
000000000000000
00000003E000000
000000000000000
000000000000000
000000000000000
000000000000000
000000000000000
000000000000000
03E000000000000
000000000100000
000000F80100000
000000F80000000
000000000080000
000000000000000
000F80000000000
000000000000000
000000000000000
03E000000000000
000000000000000
000000000000000
000000000000000
000000000000000
000000000000000
000000000000000
000000000000000
000000000000000
000000000000000
000000000000000
000000000000000
000F80000000000
000000000000000
000000000000080
000000000000080
000000000000000
03C000000000000
03C000000000000
03C000000080000
000000000100000
000000000080000
03E00000013E000
00000000003E000
03E00000003E000
000000000000000
03EF80000000000
000000000000000
000000000000000
000000000000000
000000000000000
000000000000000
000000000000000
000000000000000
000000000000000
000000000000000
000000000000000
000000000000000
000000000000000
000000000000000
000F80000000000
000000000000000
000000000000000
000000000000000
000000000000000
000000000000000
000000000000000
000000000000000
000000000080000
000000000100000
00000000003E000
00000000003E000
000000000000000
000000000000000
000000000000000
000000000000000
000000000000000
000000000000000
000000000000000
000000000000000
000000000000000
000000000000000
000000000000000
000000000000000
000000000000000
000000000000000
000000000000000
000000000000000
000000000000000
000000000000000
000000000000000
000000000000000
000000000000000
080000000000080
000000000000080
080000100000000
000080100000000
000080180000000
000000080000000
000000000000000
000000080000000
000000000000000
000000000000000
000000000000000
000000000000000
000000000000000
000000000000000
000000000000000
000000000000000
000000000000000
000000000000000
000000000000000
000000000000000
000000000000000
000000000000000
000000000000000
000000000000000
000000000000000
000000000000000
000000000000000
000000000000000
000000000000000
080000000000000
000000000000000
000000000000000
000000080000000
000000080000000
000000080000000
000000000000000
000000000000000
000000000000000
000000000000000
000000000000000
000000000000000
000000000000000
000000000000000
000000000000000
000000000000000
000000000000000
000000000000000
000000000000000
000000000000000
000000000000000
000000000000000
000000000000000
000000000000000
000000000000000
00000000000003E
000000000000000
000000000000000
000000000F8003E
000000000000000
000000000000000
000000000000000
000000000000000
000000000000F80
000000000000F80
000000000000000
000000000000000
000000000000000
000000000000000
000000000000000
000000000000000
000000000000000
000000000000000
000000000000000
000000000000000
000000000000000
000000000000000
000000000000000
000000000000000
000000000000000
000000000000000
000000000000000
000000000000000
000000000000000
000000000000000
000000000000000
000000000000F80
000000000002F80
000000000002F80
000000000002000
000000000002F80
000000000000F80
000000000000000
000000000000000
000000000000000
000000000000000
000000000000000
000000000000000
000000000000000
000000000000000
000000000000000
000000000000000
000000000000000
000000000000000
000000000000000
000000000000000
000000000000000
000000000000000
000000000000000
000000000000000
000000000000000
000000000000000
000000000000000
000000000000000
000000000000000
000000000000000
000000000000000
000000000000000
000000000000000
000000000000000
000000000000000
000000000000000
000000000000000
000000000000000
000000000000000
000000000000000
000000000000000
000000000000000
000000000000000
000000000000000
000000000000000
000000000000000
000000000000000
000000000000000
000000000000000
000000000000000
000000000000000
000000000000000
000000000000000
000000000000000
000000000000000
000000000000000
000000000000000
000000000000000
000000000000000
000000000000000
000000000000000
000000000000000
000000000000000
000000000000000
000000000000000
000000000000000
000000000000000
000000000000000
000000000000000
000000000000000
000000000000000
000000000000000
000000000000000
000000000000000
000000000000000
000000000000000
000000000000000
000000000000000
000000000000000
000000000000000
000000000000000
000000000000000
000000000000000
000000000000000
000000000000000
000000000000000
000000000000000
000000000000000
000000000000000
000000000000000
000000000000000
000000000000000
000000000000000
000000000000000
000000000000000
000000000000000
000000000000000
000000000000000
000000000000000
000000000000000
000000000000000
000000000000000
000000000000000
000000000000000
000000000000000
000000000000000
000000000000000
000000000000000
000000000000000
000000000000000
000000000000000
000000000000000
000000000000000
000000000000000
000000000000000
000000000000000
000000000000000
000000000000000
000000000000000
000000000000000
000000000000000
000000000000000
000000000000000
000000000000000
000000000000000
000000000000000
000000000000000
000000000000000
000000000000000
000000000000000
000000000000000
000000000000000
000000000000000
000000000000000
000000000000000
000000000000000
000000000000000
000000000000000
000000000000000
000000000000000
000000000000000
000000000000000
000000000000000
000000000000000
000000000000000
000000000000000
000000000000000
000000000000000
000000000000000
000000000000000
000000000000000
000000000000000
000000000000000
000000000000000
000000000000000
000000000000000
000000000000000
000000000000000
000000000000000
000000000000000
000000000000000
000000000000000
000000000000000
000000000000000
000000000000000
000000000000000
000000000000000
000000000000000
000000000000000
000000000000000
000000000000000
000000000000000
00000000003E000
000000000000000
00000000003E000
00000000003E000
000000000000000
000000000000000
000000000000000
000000000000000
000000000000000
000000000000000
000000000000000
000000000000000
000000000000000
000000000000000
000000000000000
000000000000000
000000000000000
000000000000000
000000000000000
000000000000000
000000000000000
000000000000000
000000000000000
000000000000000
00000000003E000
00000000003E000
000000000F80F00
080000000000F80
100000000000F00
080000000000000
000000000000000
000000000000000
000000000000000
000000000000000
000000000000000
000000000000000
000000000000000
000000000000000
000000000000000
000000000000000
000000000000000
000000000000000
000000000000000
000000000000000
000000000000000
000000000000000
000000000000000
000000000000000
000000000000000
000000000000F80
000000000000F80
000000000000000
000000000F80000
000000000F80000
000000000000000
080000000F80F80
100000000000F80
200000000000F80
08000003EF00000
00000003EF80000
000000000000000
000000000000000
000000000000000
000000000000000
000000000000000
780000000000000
000000000000000
000000000000000
000000000000000
000000000000000
000000000000000
000000000000000
000000000000000
000000000000000
000000000000000
000000000000000
000000000000000
00000000003E000
000000000000000
000000000F80000
000000000000000
00000003E000000
00000003E000000
000000000000000
000000000000000
080000000000000
180000000000000
080000000000000
000000000000000
000000000000000
000000000000000
000000000000000
000000000000000
78000000000003C
000000000000000
000000000000000
000000000000000
000000000000000
000000000000000
000000000000000
000000000000000
000000000000000
000000000000000
000000000000F80
000000000000F80
000000000000F80
78000003C000000
00000003E000000
000000000000000
00000003E000000
000000000000000
000000000000000
000000000000000
000000000000002
080000000000000
10003E000000000
080000000000000
000000000000000
000000000000000
00003E000000000
00003E000000000
00000000000003E
78000000000003C
000000000000000
000000000000000
000000000000000
000000000000000
000000000000000
000000000000000
000000000000000
000000000000000
000000000000F80
000000000000F80
00000003E000000
00000003E000000
78000003C000000
780000000000000
78000003E000000
780000000000000
780000000000000
000000000000000
000000000000000
000000000000000
100000000000000
100000000000000
080000000000000
080000000000000
000000000000000
000000000000000
00003E00000203E
70000000000203C
000000000000000
000000000000000
000000000000000
000000000000000
000000000000000
000000000000000
000000000000000
000000000000F80
000000000000000
000000000000000
000000000000000
780000000000000
000000000000000
000000000000000
000000000000000
000000000000000
000000000000000
000000000000000
000000000000002
000000000000F80
000000000000000
080000000000000
100000000000000
100000000000000
00003E000000000
00003E000000000
00003E000000000
78000000000003E
000000000000000
000000000000000
000000000000000
000000000000000
000000000000000
000000000000000
000000000000000
000000000000000
000000000000000
000000000000000
780000000002000
000000000004000
000000000006000
000000000004000
000000000004000
780000000000000
000000000000000
000000000000000
000000002000000
000000002000000
000000000000000
000000000000000
080000000000000
100000000000000
080000000000000
000000000000000
000000000000000
000000000000000
000000000000000
000000000000000
000000000000000
000000000000000
000000000000000
000000000000000
000000000000000
000000000000000
000000000000000
780000000000000
000000000004000
000000000004000
000000000004000
000000000000000
000000000002000
78003E000000000
000000000080000
780000000080002
000000004000000
780000002000000
000000000000000
000000000000000
080000000000000
180000000000000
080000000000000
000000000000000
000000000000000
000000000000000
000000000000000
000000000000000
000000000000000
000000000000000
000000000000000
000000000000000
000000000000000
000000000000000
000000000000000
000000000000000
000000000002080
780000000000100
00003E000000100
00003C000000100
00003C000000080
000000000000000
780000000000000
000000000002004
000000002000000
000000000000000
000000000000000
000000000000000
000000000000000
000000000000000
000000000000000
000000000080000
00000000003E000
000000000000000
000000000000000
000000000000000
000000000000000
000000000000000
000000000000000
000000000000000
000000000000000
000000000000000
000000000000000
000000000000180
000000000000100
000000000000080
00003E000000000
000000000000000
000000000000000
000000000000000
000000000000000
000000000000000
000000002084000
000000000000000
000000002000000
000000000000000
000000000000000
000000000000000
000000000000000
00000000003E000
00000000003C000
000000000000000
000000000000000
000000000000000
000000000000000
000000000000000
000000000000000
000000000000000
000000000000000
000000000000000
000000000000000
000000000000000
000000000000000
000000000000000
000000000000000
00000000000003E
000000000000000
000000000000000
000000000000000
000000000002000
000000000002000
000000000000000
000000000000000
000000000000000
000000000000000
000000000000000
000000000000000
00000000003C000
00000000003A000
000000000000000
000000000000000
000000000000000
000000000000000
000000000000000
000000000000000
000000000000000
000000000000000
000000000000000
000000000000000
000000002000000
000000004000000
000000002000000
000000000000000
000000000000000
00000000003E000
000000000000000
000000000000000
000000000000000
000000000000000
000000002000000
000000002000000
000000000000000
000000000000000
00000000003C000
00000000003E000
00000000003C000
00000000003E000
000000000000000
000000000000000
000000000000000
000000000000000
000000000000000
000000000000000
000000000000000
000000000000000
000000000000000
000000000000000
000000000000000
000000002000000
000000000000000
000000000000000
000000000000000
000000000000000
000000000000000
000000000000F80
000000000000000
000100000000000
000080002000000
00003E000000000
00000000003E000
78000000003E000
78000000003E000
00000000003C000
00000000003C000
000000000000000
000000000000000
000000000000000
000000000000000
000000000000000
000000000000000
000000000000000
000000000000000
000000000000000
000000000000000
000000000000000
000000000000000
000000000000000
000000000000000
000000000000000
000000000000000
000000000000000
000000000000000
000080002000000
000080004000000
000000002000000
000000000000000
00000000003E000
00000000003E000
000F0000003C000
780000000000000
000F8000003C000
000000000FBE000
000000000000000
000000000000F80
000000000000F80
000000000000000
000000000000000
000000000000000
000000000000000
000000000000000
000000000000000
000000000000000
000000000000000
000000000000000
000000000000000
000000000000000
000000000000000
000000000000000
000000000000000
780002000000000
00000200200203E
000000002000000
000000000000000
00000000003C000
00000000003E000
000F0000003C000
000F00000000000
000000000F80000
000F00000EBE000
000000000F00F80
000000000F00F80
000000000000F80
000000000000000
000000000000000
000000000000000
000000000000000
000000000000000
000000000000000
000000000000000
000000000000000
000000000000F80
000000000000000
000000000000000
000000000000000
000000000000000
000002000000000
000004000000000
000004000000000
000006000000000
000000000000000
000000000000000
000000000000000
00000003C03E000
00000003E000000
000F8003E03E000
000F0003EF80000
000F00000F00000
000000000F00F80
000000000000F80
000000000000000
000000000000000
000000000000000
000000000000000
000000000000000
000000000000000
000000000000000
000000000000000
000000000000000
000000000000000
000000000000000
00000003E000000
00000003C000000
000F80000000000
000F00000000000
000F80000000000
000000000000000
000F80000000000
000000000000000
00000003E000000
000000000000000
000000000000000
00000003E000000
00000003E000000
000000000F00000
000000000F80000
000000000F80F80
000000000000000
000000000000000
000000000000000
000000000000000
000000000000000
000000000000000
000000000000000
000000000000000
000000000000000
000000000000000
000000000000000
000000000000000
00000003E000000
00000003E000000
00000003C000000
00000003C000000
00000003C000000
00000003C000000
00000003C000000
00000003C000000
00000003E000000
00000003E000000
00000003E000000
000000000F80000
000000000E80000
000000000F00000
000000000000000
00000000000003E
000000000000000
000000000000000
000000000000000
000000000000000
000000000000000
000000000000000
000000000000000
000000000000000
000000000000000
000000000000000
000000000000F80
000000000000000
000000000000000
000000000000000
000000000000000
00000003E000000
000000000000000
00000003E000000
00003C03C000000
000000000000000
00000003E000000
000000000000000
000000000000000
780000000F00000
000000000F00000
000000000000000
000000000000000
000000000000000
000000000000000
000000000000000
000000000000000
000000000000000
000000000000000
000000000000000
000000000000000
000000000000000
000000000000000
000000000000000
000000000000000
000000000000000
000000000000000
000000000000000
000000000000000
00000003E000000
08003E03E000000
00003C03E000000
00003C03E000000
00003E03C000000
00003C03E000000
00003E000000000
000000000000000
000000000000000
000000000000000
000000000000000
000000000000000
000000000000000
000000000000000
000000000000000
000000000000000
000000000000000
000000000000000
000000000000000
000000000000000
000000000000000
000000000000000
000000000000000
000000000000000
000000000000000
000000000000000
000000000000000
000000000000000
000000000000000
000000000000000
00000003E000000
00000003E000000
00000003E000000
000000000000000
000000000000000
000000000000000
000000000000000
000000000000000
000000000000000
000000000000000
000000000000000
000000000000000
000000000000000
000000000000000
000000000000000
000000000000000
000000000000000
000000000000000
000000000000000
000000000000000
000000000000000
000000000000000
000000000000000
000000000000000
000000000000000
000000000000000
000000000000000
000000000000000
000000000000000
000000000000000
000000000000000
000000000000000
000000000000000
000000000000000
000000000000000
000000000000000
000000000000000
000000000000000
000000000000000
000000000000000
000000000000000
000000000000000
000000000000000
000000000000000
000000000000000
000000000000000
000000000000000
000000000000000
000000000000000
000000000000000
000000000000000
000000000000000
000000000000000
000000000000000
000000000000000
000000000000000
000000000000000
000000000000000
000000000000000
000000000000000
000000000000000
000000000000000
000000000000000
000000000000000
000000000000000
000000000000000
000000000000000
000000000000000
000000000000000
000000000000000
000000000000000
000000000000000
000000000000000
000000000000000
000000000000000
000000000000000
000000000000000
000000000000000
000000000000000
000000000000000
000000000000000
000000000000000
000000000000000
000000000000000
000000000000000
000000000000000
000000000000000
000000000000000
000000000000000
000000000000000
000000000000000
000000000000000
000000000000000
000000000000000
000000000000000
000000000000000
000000000000000
000000000000000
000000000000000
000000000000000
000000000000000
000000000000000
000000000000000
000000000000000
000000000000000
000000000000000
000000000000000
000000000000000
000000000000000
000000000000000
000000000000000
000000000000000
000000000000000
000000000000000
000000000000000
000000000000000
000000000000000
000000000000000
000000000000000
000000000000000
000000000000000
000000000000000
000000000000000
000000000000000
000000000000000
000000000000000
000000000000000
000000000000000
000000000000000
000000000000000
000000000000000
000000000000000
000000000000000
000000000000000
000000000000000
000000000000000
000000000000000
000000000000000
000000000000000
000000000000000
000000000000000
000000000000000
000000000000000
000000000000000
000000000000000
000000000000000
000000000000000
000000000000000
000000000000000
000000000000000
000000000000000
000000000000000
000000000000000
000000000000000
000000000000000
000000000000000
000000000000000
000000000000000
000000000000000
000000000000000
000000000000000
000000000000000
000000000000000
000000000000000
000000000000000
000000000000000
000000000000000
000000000000000
000000000000000
000000000000000
000000000000000
000000000000000
000000000000000
000000000000000
000000000000000
000000000000000
000000000000000
000000000000000
000000000000000
000000000000000
000000000000000
000000000000000
000000000000000
000000000000000
000000000000000
000000000000000
000000000000000
000000000000000
000000000000000
000000000000000
000000000000000
000000000000000
000000000000000
000000000000000
000000000000000
000000000000000
000000000000000
000000000000000
000000000000000
000000000000000
000000000000000
000000000000000
000000000000000
000000000F80000
000000000F80000
000000000000000
000000000000000
000000000000000
000000000000000
000000000000000
000000000000000
000000000000000
000000000000000
000000000000000
000000000000000
000000000000000
000000000000000
000000000000000
000000000000000
000000000000000
000000000000000
000000000000000
000000000000000
000000000000000
000000000000000
000000000000000
000000000000000
000000000000000
000000000000000
000000000000000
000000000000000
000000000000000
080000000000000
080000000000000
000000000000000
000000000000000
000000000000000
000000000000000
000000000000000
000000000000000
000000000000000
000000000000000
000000000000000
000000000000000
000000000000000
000000000000000
000000000000000
000000000000000
000000000000000
00003E000000000
780000000000000
700000000000000
000000000000000
000000000080000
780000000000000
000000000000000
78000003E080000
780000000000000
000000000000000
000000000000000
000000000000000
000000000000000
000000000000000
000000000000000
000000000000000
000000000000000
000000000000000
000000000000000
000000000000000
000000000000000
000000000000000
000000000000000
000000000000000
000000000000000
000000000000000
000000000000000
000000000000000
000000000000000
000000000000000
000000000000000
780000000000000
780000000000000
000000000000000
000000000000000
000000000000000
000000000000000
000000000000000
000000000000000
000000000000000
000000000000000
000000000000000
000000000000000
000000000000000
000000000000000
000000000000000
000000000000000
000000000000000
000000000000000
000000000000000
000000000000000
000000000000000
000000000000000
000000000000000
000000000000000
000000000000000
000000000000000
03E000000000000
03A000000000000
03A000000000000
03A000F80000000
03C000F80000000
03E004F80000000
03E002F80000000
03C000000000000
03E000000000000
03E000000000000
000000000000000
000000000000000
000000000080000
000000000000000
000000000000000
000000000000000
000000000000000
000000000000000
000000000000000
000000000000000
000000000000000
000000000000000
000000000000000
000000000000000
000000000000000
000000000000000
000000000000000
000000000000000
000000000000000
000000000000000
000000000000000
000000000000000
03A000000000080
03A000F80000000
03C000000000000
03E000000000000
03E000000000000
7BE00003E000000
03E000000000000
03E000000000000
780000000000000
00000003E000000
000000000000000
000000000000000
000000000000000
000000000000000
000000000000000
000000000000000
000000000000000
000000000000000
000000000000000
000000000000000
000000000000000
000000000000000
000000000000000
000000000000000
000000000000000
000000000000000
000000000000000
000000000000000
000000000038000
000000F8003E000
000000000000000
000000000000000
000000000000000
000000000000000
000000000000000
780000000000000
70000003C000000
70000003A000000
78000003E000000
000000000000000
000000000000000
000000000000000
000000000000000
000000000000000
000000000000000
000000000000000
000000000000000
000000000000000
000000000000000
000000000000000
000000000000000
000000000000000
000000000000000
000000000000000
000000000000000
000000000000000
000000000036000
000000000000000
000000000000000
000000F80000000
000000000000000
000000000000000
000000000000000
000000000000000
000000000000000
00000003C000000
00000003E000000
000000000000000
000000000000000
000000000000000
000000000000000
000000000000000
000000000000000
000000000000000
000000000000000
000000000000000
000000000000000
000000000000000
000000000002000
000000000002000
000000000004000
000000000000000
000000000000000
000004000000000
000000000000000
002000000000000
000000000000000
000000000000000
03E000F80000000
000000F00000000
000000F00000000
000000F00000000
000000F00000000
000000000000000
000000000000000
000000000000000
000000000000000
000000000000000
000000000000000
000000000000000
000000000000000
000000000000000
000000000000000
000000000F80000
000000000000000
000000000002000
000000000002000
000000000002000
000000000004000
000000000000000
000000000000000
000004000000000
000000000000002
000000000000000
000000000F80000
000000000F80000
03E000000F80000
000000F80000000
000000F80F80000
000000000000000
000000F00000000
000000F00000000
000000000000000
000000000000000
000000000000000
000000000000000
000000000000000
000000000000000
000000000000000
000000000000000
000000000000000
000000000F80000
000000000000000
000000000000000
000000000000000
000000000000000
000000000000000
000000080000000
002000080080000
000000000000000
000000000000002
080000000000F00
000000002F80000
000000000000000
000000000000000
000000000000000
000000000F80000
080000000F80000
080000000F80000
000000000000000
000000000000000
000000000000000
000000000000000
000000000000000
000000000000000
000000000000000
000000000000000
000000000000000
000000000000000
000000000000000
080000000000000
000000000000000
000000000000000
000000000000000
000000000000000
002000000000000
002000000080000
002000000000000
002000000000F82
000000000000F00
080000002000F00
000000000002000
000000000F80000
000000000000000
000000000000000
080000000F80000
080000000000000
080000000000000
000000000000000
000000000000000
000000000000000
000000000000000
000000000000000
000000000000000
000000000000000
000000000000000
000000000000000
000000000000000
000000000000000
000000000000000
000000000000000
000000000000000
000000000000000
000000000000000
002000080000000
002000080000002
004000000000000
000000000000F80
000000002000F00
000000000000000
000000000000000
00000000000003E
080000000000000
000000000000000
000000000000000
000000000000000
000000000000000
000000000000000
000000000000000
000000000000000
000000000000000
000000000000000
000000000000000
000000000000000
000000000000000
000000000000000
000000000000000
002000000000000
000000000000000
000000000000F80
000000000000000
000000000000000
000000000000000
002000080000000
004000000000F80
002000000000F00
000000000000000
000000000000000
00000000000003E
000000000000000
000000000000000
000000000000000
000000000000000
000000000000000
000000000000000
000000000000000
000000000000000
000000000000000
000000000000000
000000000000000
000000000000000
000000000000000
000000000000000
000000000000000
000000000000000
000000000000000
002000000000F80
000000000000F00
000000000000F00
000000000000F00
000000000000F00
082000000000E80
08203E000000E80
00003C000000F80
000000000000000
000000000000000
000000000000000
000000000000000
000000000000000
000000000000000
000000000000000
000000000000000
000000000000000
000000000000000
000000000000000
000000000000000
000000000000000
000000000000000
000000000000000
000000000000000
000000000000000
78000000003E000
680000000080000
000000000000000
000000000000000
000000000000000
000000000000000
000000000000000
002000000000000
00003E000000000
000000000000000
000000000000000
000000000000000
000000000000000
000000000000000
000000000000000
000000000000000
000000000000000
000000000000000
00003E000000000
00003E000000000
000000000000000
000000000000000
000000000000000
000000000000000
000000000000000
000000000000000
000000000000000
000000000000000
700000000000000
68000003E080000
78000003E000000
000000000080000
000000000000000
000000000000000
000000000000000
000000000000000
000000000000000
000000000000000
000000000000000
000000000000000
000000000000000
000000000000000
000000000000000
000000000000000
000000000000000
780000000080000
00003E000000000
000000000000000
000000000000000
000000000000000
000000000000000
000000000000000
000000000000000
000000000000000
000000000000000
000000000000000
780000000000000
70000003E0BE000
70000003E13C000
00000003E0BE000
00000003E000000
000000000000000
000000000000000
000000000000000
000000000F80000
000000000F80000
000000000000000
000000000000000
000000000000000
000000000000000
000000000000000
000000000000000
700000000080000
78003E000000000
00003E000000000
000000000000000
000000000000000
000000000000000
000000000000000
000000000000000
000000000000000
000000000000000
000000000000000
000000000000000
000000000000000
00000003E080000
78000003E13E000
00000003E03C000
000000000000000
000000000000000
000000000000000
000000000000000
000000000000000
000000000000000
002000000000000
000000000000000
002000080000000
000000000000000
780000000080000
780000000000000
780000000000000
000000000000000
000000000000000
000000000000000
000000000000000
000000000000000
000000000000000
000000000000000
000000000000000
000000000000000
000000000000000
000000000000000
000000000000000
000000000000000
00000003E03C000
00000000003C000
0000000000BC000
000000000000000
00000003E000000
000000000000000
000000000000000
000000000000000
000000000000000
000000000000000
000000080080000
780000080180000
000000000080000
000000000000000
000000000000000
000000000000000
000000000000000
000000000000000
000000000000000
000000000000000
000000000000000
000000000000000
000000000000000
000000000000000
000000000000000
000000000000000
000000000000000
000000000000000
000000000000000
03E000000000000
00000000003E000
7BE00003E000000
78000003E000000
78000003C000000
00000003E000000
00000003C000000
00000003C000000
00000003E000000
000000000000000
000000000000000
000000000000000
000000000000000
000000000000000
000000000000000
000000000000000
000000000000000
000000000000000
000000000000000
000000000000000
000000000000000
000000000000000
000000000000000
000000000000000
000000000000000
000000000000000
000000000000000
000000000000000
03E000000000000
000000000000000
03E000000000000
000000000000000
000000000000000
780000000000000
780000000000000
000000000000000
000000000000000
000000000000000
000000000000000
000000000000000
000000000000000
000000000000000
000000000000000
000000000000000
000000000000000
000000000000000
000000000000000
000000000000000
000000000000000
000000000000000
000000000000000
000000000000000
000000000000000
000000000000000
000000000000000
000000000F80000
000000000F80000
000000000F80000
03E000000000000
03C000000000000
03C000000000000
03E000000000000
03E000000000000
000000000F80000
000000F80F80000
03E000F80F00000
000000000F00000
000000000F00000
000000000F80000
000000000000000
000000000000000
000000000000000
000000000000000
000000000000000
000000000000000
000000000000000
000000000000000
000000000000000
000000000000000
000000000000000
000000000000000
000000000000000
000000000000000
000000000000000
000000000000000
000000000000000
000000000000000
000000000000000
000000000000000
000000000F80000
000000000F00000
000000000000000
000000000F80000
000000000000000
000000000000000
000000000000000
000000000000000
000000000000000
000000000000000
000000000000000
000000000000000
000000000000000
000000000000000
000000000000000
000000000000000
000000000000000
000000000000000
000000000000000
000000000000000
000000000000000
000000000000000
000000000000000
000000000000000
000000000000000
000000000000000
000000000000000
000000000000000
000000000000000
000000000000000
000000000000000
000000000000000
000000000000000
000000000000000
000000000000000
000000000000000
000000000000000
000000000000000
000000000000000
000000000000000
000000000000000
000000000000000
000000000000000
000000000000000
000000000000000
000000000000000
000000000000000
000000000000000
000000000000000
000000000000000
000000000000000
000000000000000
000000000000000
000000000000000
000000000000000
000000000000000
000000000000000
000000000000000
000000000000000
000000000000000
000000000000000
000000000000000
000000000000000
000000000000000
000000000000000
000000000000000
000000000000000
000000000000000
000000000000000
000000000000000
000000000000000
000000000000000
000000000000000
000000000000000
000000000000000
000000000000000
000000000000000
000000000000000
000000000000000
000000000000000
000000000000000
000000000000000
000000000000000
000000000000000
000000000000000
000000000000000
000000000000000
000000000000000
000000000000000
000000000000000
000000000000000
000000000000000
000000000000000
000000000000000
000000000000000
000000000000000
000000000000000
000000000000000
000000000000000
000000000000000
000000000000000
000000000000000
000000000000000
000000000000000
000000000000000
000000000000000
000000000000000
000000000000000
000000000000000
000000000000000
000000000000000
000000000000000
000000000000000
000000000000000
000000000000000
000000000000000
000000000000000
000000000000000
000000000000000
000000000000000
000000000000000
000000000000000
000000000000000
000000000000000
000000000000000
000000000000000
000000000000000
000000000000000
000000000000000
000000000000000
000000000000000
000000000000000
000000000000000
000000000000000
000000000000000
000000000000000
000000000000000
000000000000000
000000000000000
000000000000000
000000000000000
000000000000000
000000000002000
000000000000000
000000000002F80
000000000002000
000000000002F80
000000000002000
000000000000000
000000000000000
000000000000000
000000000000000
000000000000000
000000000000000
000000000000000
000000000000000
000000000000000
000000000000000
000000000000000
000000000000000
000000000000000
000000000000000
000000000000000
000000000000000
000000000000000
000000000000000
000000000000000
000000000000000
000000000000000
000000000000000
000000000000000
000000000000000
000000000000000
000000000002000
000000000000000
000000000002000
000000000002000
000000000000000
000000000000000
000000000000000
000000000000000
000000000000000
000000000000000
000000000000000
000000000000000
000000000000000
000000000000000
000000000000000
000000000000000
000000000000000
000000000000000
002000000000000
000000000000000
000000000000000
000000000000000
000000000000000
000000000000000
000000000000080
000000000000000
000000000000000
000000000000000
000000000000000
000000000000000
000000000000000
000000000000000
000000000002000
000000000002000
000000000000000
000000000000000
000000000000000
000000000000000
000000000000000
000000000000000
000000000000000
000000000000000
000000000000000
000000000000000
000000000000000
000000000000000
000000000000000
000000000000000
000000000000000
000000000000000
000000000000080
000000000000000
000000000000000
000000000000000
000000000000000
000000000000000
000000000002000
000000000000000
000000000000000
000000000000000
000000000000000
000000000000000
000000000000000
000000000000000
000000000000000
000000000000000
000000000000000
000000000000000
000000000000000
000000000000000
000000000000000
000000000000000
000000000000000
000000000000000
000000000000000
000000000000000
00003E000000000
000000000000000
000000000002000
000000000000000
000000000000000
700000000000000
000000002002000
00003E000002000
000000000002000
000000000002000
000000000000000
000000000000000
03E000000000000
000000000000000
000000000000000
000000000000000
000000000000000
000000000000000
000000000000000
000000000000000
000000000000000
000000000000000
000000000000000
000000000000000
000000000000000
000000000000000
000000000000000
00003E000000000
000000000000000
03C000000002000
000000000000000
000000000000000
000000000000000
000000000000000
000000000000000
000000000000000
00003E000000000
000000000000000
03E000000000000
000000000000000
000000000000000
03E000000000000
000000000000000
000000000000000
000000000000000
000000000000000
000000000000000
000000000000000
000000000000000
000000000000000
000000000000000
000000000000000
000000000000000
00000003E000000
000000000002000
03E00003E000000
03A000000000000
036000000000000
03E000000000000
000000000000000
000000002000000
00200000003E000
00000000003A000
00000000003A000
10003E00003C000
00003C03E03C000
00003C00003E000
00003E00003E000
03E03E00003E000
03E03E000000000
000000000000000
000000000000000
000000000000000
000000000000000
000000000000000
000000000000000
000000000000000
000000000000000
000000000000000
000000000000000
000000000000000
03E000000000000
03A000000000000
03A00003E000000
03C000000000000
03E000000000000
000000000000000
000000000000000
000000000000000
000000000FBC000
000000080FBA000
000000000FBA000
100000000FB8000
00000003EF38000
00003E00003A000
000000000FB8000
00003C000FB8000
00003C00003E000
000000000000000
000000000000000
000000000000000
000000000000000
000000000000000
000000000000000
000000000000000
000000000000000
000000000000000
000000000000000
03E000000000000
03C00003E000000
03E000000000000
000000000000000
000000000000000
000000000000000
000080000000000
000080000000000
780080002F80004
000080000F00002
000000100F00000
100000000E80000
000000000F00000
000000000F00000
000000000E80000
000000000F3E000
000000F80FBE000
000000000000000
000000000000000
000000000000000
000000000000000
000000000000000
000000000000000
000000000000000
000000000000000
000000000000000
000000000000000
000000000000000
000000000000000
000000000000000
000000000000000
000000000000000
000080000000000
000080000000000
002080000000000
780000000000000
680080002F80006
000100000F80002
000000000000000
000000000002000
000000000002000
000000000000000
000000000000000
000000000000000
000F80F80000000
000000F80000000
000000000000000
000000000000000
000000000000000
000000000000000
000000000000000
000000000000000
000000000000000
000000000000000
000000000000000
000000000000000
000000000000000
000000000000000
000000000000000
000000000000000
002000000000000
000000000000000
000000000000000
700000002000000
780100004000000
000080002000000
000000000000000
000000000000000
000000000000000
000000000000000
000000000000000
000000000000000
000000000000000
00000000000003E
000000000000000
000000000000000
000000000000000
000000000000000
000000000000000
000000000000000
000000000000000
000000000000000
000000000000000
000000000000F80
000000000000FBE
000000000000000
000000000000F80
000000000000F00
000000000000F00
000000000000000
000000002000000
700000000000000
000080002000000
000000002000000
000000000000000
000000000000000
000000000000000
000000000000000
000000000000000
000000000000000
000000000000000
000000000000000
000000000000000
000000000000000
000000000000000
000000000000000
000000000000000
000000000000000
000000000000000
000000000000000
000000000000000
000000000000F80
000F80000000F3C
000F0003E000EBC
000000000000F3C
000000000000FBE
000000000000F3C
000000002000000
000000004000000
000000002000000
000080000000000
000000000000000
000000000000F80
000000000000000
000000000000000
000000000000000
000000000002000
000000000000000
000000000000000
000000000000000
000000000000000
000000000000000
000000000000000
000000000000000
000000000000000
000000000000000
000000000000000
000000000000000
000000000000000
000000000000000
000F00F00000F3E
000F0003C000F3E
000E80FBC00003E
000F0000000003C
000F8000000203A
00000000000003C
000000000000000
000000000000000
000002000000000
000000000000000
000000000000000
000000000000000
000000000000000
000000000000000
000000000000000
002000000000000
000000000000000
000000000000000
000000000000000
000000000000000
000000000000000
000000000000000
000000000000000
000000000000000
000000000000000
000000000000000
000000000000000
000000F80000000
000000E80000000
000000EBC000000
000F80F38000000
000E80E38000000
000E00E3A000000
000D00F3E000000
000F8003E000000
000000000000000
000000000000000
000000000000000
00000003E000000
00000003E000000
000000000000000
002000000000000
000000000000000
002000000000000
000000000000000
000000000000000
000000000000000
000000000000000
000000000000000
000000000000000
000000000000000
000000000000000
000000000000000
000000000000000
000000000000000
000000000000000
000000F80000000
000000F80000000
00000003E000000
000000FB8000000
000000E38000000
000000036000000
000000038000000
00000003C000000
00000003E000000
000000000000000
000000000000000
000000000002000
000000000002000
000000000000000
000000000000000
004000000000000
000000000000000
000000000000000
000000000000000
000000000000000
000000000000000
000000000000000
000000000000000
000000000000000
000000000000000
000000002000000
000000000000000
000000000000000
000000000000000
000000000000000
000000000000000
000080000000000
000000000000000
000000000000000
000000000000000
000000000000000
000000000000000
000000000000000
004000000000000
002000000000000
000000000000000
002000000000000
000000000000000
002000000000000
000000000000000
000000000000000
000000000000000
000000000000000
000000000000000
000000000000000
000000000000000
000000000000000
000000000000000
000000002000000
000000000000000
000000000000000
000000000000000
000000000000000
000000000000000
000080000000000
000000000000000
000000000080000
000000000080000
000000000100000
000000000080000
000000000080000
002000000100000
004000000080000
002000000100000
002000000100000
000000000000000
000000000000000
000000000000000
000000000000000
000000000000000
000000000000000
000000000000000
000000000000000
000000000000000
000000000000000
000000000000000
000000000000000
000000002000000
000000000000000
000000000000000
000000000000080
000000000080080
000000000100080
000000002080000
000000000100000
000000000082000
000000000082000
000000000080000
000000000080000
000000000080000
002000000000000
002000000000000
000000000000000
000000000000000
000000000000000
000000000000000
000000000000000
000000000000000
000000000000000
000000000000000
000000000000000
000000000000000
000000000000000
000000000000000
000000000000000
000000002000000
000000002000000
000000000000000
000000000000000
000000000000100
000000000080080
000000002000080
000000000000000
000000000000000
000000000000000
000000000000000
000000000000000
000000000000000
000000000000000
000000000000080
000000000000000
000000000000000
000000000000000
000000000000000
000000000000000
000000000000000
000000000000000
000000000000000
000000000000000
000000000000000
000000000000000
000000000000000
000000000000000
000000000000000
000000002000000
000000000000000
000000000000000
000000000000000
000000000000000
00003E002000000
00003C000000080
00003E000000080
00003C000000080
00003C000000100
00003E000000100
000000000000100
000000000000080
000000000000000
000000000000000
000000000000000
000000000000000
000000000000000
000000000000000
000000000000000
000000000000000
000000000000000
000000000000000
000000000000000
000000000000000
000000000000000
000000000000000
000000000000000
000000000000000
000000002000000
000000002000000
000000002000000
000000000000000
000000004000000
00003E000000000
00003E000000000
00003E000000000
00003E000000000
00003E000000000
000000000000000
000000000000000
000000000000000
000000000000000
000000000000000
000000000000000
000000000000000
000000000000000
000000000000000
000000000000000
000000000000000
000000000000000
000000000000000
000000000000000
000000000000000
000000000000000
000000000000000
000000000000000
000000000000000
000000000000000
000000000000000
000000000000000
000000000000000
000000002000000
000000000000000
000000000000000
000000000000000
000000000000000
000000000000000
000000000000000
000000000000000
000000000000000
000000000000000
000000000000000
000000000000000
000000000000000
000000000000000
000000000000000
000000000000000
000000000000000
000000000000000
000000000000000
000000000000000
000000000000000
000000000000000
000000000000000
000000000000000
000000000000000
000000000000000
000000000000000
000000000000000
000000000000000
000000000000000
000000000000000
000000000000000
000000000000000
000000000000000
000000000000000
000000000000000
000000000000000
000000000000000
000000000000000
000000000000000
000000000000000
000000000000000
000000000000000
000000000000000
000000000000000
000000000000000
000000000000000
000000000000000
000000000000000
000000000000000
000000000000000
