00A
000
410
280
002
C00
000
0AA
280
810
93E
000
000
9BA
B14
100
112
000
00A
002
000
000
03E
F80
000
4AE
038
700
38A
00A
002
E80
380
108
000
000
204
404
826
006
032
128
036
83E
000
000
CB0
100
020
000
000
000
B00
F86
00C
000
1B4
2A8
E3A
180
108
F2C
780
000
000
038
004
FB6
000
002
81A
300
000
000
186
FBA
004
3AA
D00
310
C80
FBE
03E
F8C
100
000
F30
B80
128
48E
034
F80
E04
2B4
288
98C
BBE
000
030
202
D36
C00
F00
A2E
00C
004
00C
C88
00C
880
400
034
022
00C
000
33A
E00
B06
DAC
002
000
000
F0A
13A
8B2
B08
32C
680
034
02E
1B2
028
000
500
500
086
C80
500
036
02C
B80
C80
130
D80
080
C10
202
D0C
C00
300
8AC
000
182
00C
000
000
000
D88
28E
004
E00
F00
500
32A
000
28A
000
30A
028
1A4
F00
230
D8E
020
000
C00
000
908
F08
00A
03C
BB2
000
180
9B2
000
38C
200
E80
038
008
000
104
B80
C2E
B00
48A
000
F00
F26
080
40A
380
316
E86
03A
F80
000
2AA
008
000
020
280
100
C04
EA8
080
000
080
400
33C
000
310
006
300
03A
036
03E
00C
034
88C
080
93C
980
00C
2A2
90E
C8A
188
B84
C00
000
D10
200
034
000
100
C24
03A
036
100
000
100
4BA
980
000
C00
200
B84
F80
036
33C
000
C06
000
00A
F2C
D8A
310
A82
000
000
494
F8E
032
180
0BE
032
192
E80
2B8
1B6
03A
580
1B6
000
000
F08
B30
C00
00C
11C
888
0B6
200
010
22C
302
00A
038
F80
F00
980
280
1B0
008
280
106
E00
008
E80
28C
D34
33E
032
034
B06
404
00A
B00
F00
000
000
038
002
3A8
1B2
C3C
D00
000
43C
C32
538
002
038
032
186
BBA
100
032
002
F08
A00
E10
2B6
9B6
D3A
998
386
000
00C
000
328
B80
38C
000
000
E8A
02E
F00
280
B0A
0A6
E00
000
BBE
102
D3C
008
1B2
02A
DB8
902
204
22C
134
000
00C
F12
FB8
000
002
000
D80
338
000
13A
D16
28C
A90
00E
81C
280
986
F04
00C
DB2
D00
286
036
2B0
024
BBC
A00
030
136
000
000
036
000
300
000
180
628
00A
200
036
C32
1B6
EBA
000
000
FBC
000
324
180
20C
026
A80
000
036
08E
002
A34
800
180
A00
024
08A
008
012
03C
280
28A
000
48C
306
400
108
896
2A8
000
F00
C36
028
000
B08
002
180
D3E
03C
284
02E
000
000
032
13E
000
980
00A
000
C0E
A32
2A0
000
10C
03A
000
832
DB2
30A
18C
000
B80
00A
000
90A
D00
080
036
8AE
BB8
D80
188
034
1A4
18A
F08
02E
00A

